0000000001111011
1111111110001010
0000000000111111
0000000010110101
1111111101101011
0000000000110001
0000000010011111
0000000000000000
1111111101101001
1111111101101000
1111111101111110
1111111111101110
0000000000010110
0000000000100100
0000000001100010
1111111111011101
1111111101001100
1111111110100000
0000000001001101
1111111110101111
0000000001000001
1111111101101101
0000000001000000
0000000000011101
0000000001000100
1111111110010100
1111111110100000
1111111110101011
1111111110101010
1111111110101010
1111111101111001
0000000000011010
1111111110000100
1111111110000010
0000000000100111
1111111110100111
0000000000110110
0000000000000110
1111111100000000
0000000001110000
1111111111100011
0000000000000011
1111111111011101
1111111110101101
0000000001001011
0000000001101011
1111111101101010
0000000010000111
0000000001001011
1111111100100011
0000000000000101
0000000000110001
0000000000011111
1111111101011101
1111111101111001
0000000000010100
0000000000110110
0000000001010010
0000000001000001
1111111101101010
0000000000001001
0000000001001101
0000000001011100
0000000011000111
0000000001001011
1111111110001110
0000000000101000
1111111101101011
1111111110011001
0000000000011101
1111111111011101
1111111111010010
1111111110101100
0000000000110010
0000000000110101
0000000001111000
0000000000001100
1111111101011010
1111111110111110
1111111101111110
1111111110100000
0000000000010111
0000000001000000
0000000000111000
1111111110001110
1111111110110010
1111111111111100
0000000000000001
0000000000110110
1111111101011101
1111111101100110
1111111111111010
0000000001001101
0000000001010110
0000000000000101
1111111110011001
1111111111000010
0000000001000101
0000000000110010
1111111101111100
1111111110110110
1111111110101100
1111111110111011
1111111110111111
0000000000110011
1111111110111101
0000000000110000
1111111111011001
1111111110110100
1111111101101001
1111111111011100
1111111101100011
0000000001000110
1111111110101010
0000000000111111
0000000000010011
1111111101101111
1111111110011111
0000000000110110
0000000001000100
1111111111001011
1111111110101001
0000000000111001
0000000000110011
0000000001001011
0000000001000011
0000000000100111
1111111110011101
1111111111011101
1111111110101010
1111111100011000
1111111111101100
0000000001010011
0000000001000001
0000000001100101
1111111110010100
1111111110000100
0000000000011110
1111111110100101
1111111111010110
0000000001000001
0000000000111000
1111111101111000
1111111111111101
0000000000011001
0000000001101110
1111111101110110
0000000000111010
1111111111010010
0000000001000001
1111111110001111
1111111110001011
0000000000111001
0000000001011011
0000000001001110
0000000000111000
1111111110000110
1111111110100111
1111111101011111
1111111101011101
1111111110111101
0000000001001010
1111111111111110
1111111110000100
1111111110100011
1111111110111010
1111111110110010
1111111111010110
0000000001010100
1111111111110111
0000000000101111
1111111110110110
0000000001000101
1111111101110110
0000000000111111
1111111111000110
0000000000111111
1111111110101111
0000000000101011
1111111111100001
0000000001010010
0000000001001001
0000000000110001
1111111101000100
1111111110101101
1111111110100000
1111111111001011
0000000000101111
1111111110101010
1111111110011000
0000000000110100
1111111110110111
0000000001011101
1111111111110000
1111111110011011
0000000001110011
1111111110001110
1111111100110001
0000000010000001
1111111110001011
0000000001001001
0000000000101100
1111111100100100
0000000001001001
0000000001000001
1111111111011100
1111111110111110
0000000010101000
1111111101111100
0000000000111101
1111111101001111
0000000000101110
0000000001100010
0000000001011111
0000000000101001
1111111100011010
0000000000110000
1111111110000110
1111111111101001
1111111101010101
1111111110001001
1111111111001101
0000000000101111
0000000000010001
1111111101110011
1111111101100001
0000000000110011
1111111110101111
0000000001100100
0000000001001111
1111111110000001
0000000010000010
1111111101111111
0000000000101100
0000000000101111
1111111111011100
0000000001000000
1111111110101011
0000000001010000
1111111100111100
0000000001010101
1111111111010111
0000000000111000
1111111110101111
1111111110001100
1111111111010000
1111111100111111
0000000001000110
1111111110101000
1111111111001000
1111111110001110
0000000001000010
0000000000110010
0000000001001111
1111111110001111
1111111110111111
1111111111101110
0000000000100110
0000000000101110
1111111101100001
1111111110011111
1111111110100000
1111111101111011
0000000010010011
0000000001000011
1111111110101001
1111111111111100
0000000001101101
1111111111010001
0000000001100000
0000000000111011
1111111111001011
1111111110111110
1111111101110000
1111111111000101
1111111111100011
0000000000111010
0000000000011101
0000000000010110
0000000000100110
1111111111001010
0000000001101000
0000000000010010
1111111111001110
0000000000110011
1111111111001011
1111111111001111
0000000000010110
1111111111101101
0000000000111111
1111111110010010
0000000000001110
0000000001010011
0000000001000001
0000000001101111
1111111111001111
1111111111001010
1111111111001000
0000000000100000
1111111111000110
1111111101110110
0000000000010011
0000000001001001
1111111110001010
0000000000111101
0000000001110010
0000000000000110
1111111101100110
1111111110111001
0000000000001010
1111111110000010
0000000001100010
1111111101110010
0000000001000110
0000000000011011
0000000000101011
1111111101011110
1111111111011111
1111111111011101
1111111101111110