0000000010000011
0000000001110011
0000000010001011
0000000011010100
0000000010101100
0000000000111101
0000000011111100
0000000011110111
0000000010110001
1111111110001000
0000000000100001
0000000100101101
1111111101101000
0000000110110010
0000000100000101
0000000010011100
0000000000010100
0000000100100011
1111111101111111
1111111110010101
0000000011101001
0000000010101111
0000000011010101
0000000100011011
1111111111010110
0000000101010010
0000000010000000
0000000000000111
0000000001011011
1111111100101010
1111111110011101
0000000001110000